#ifndef MODEL_DATA_H
#define MODEL_DATA_H

const unsigned char model_data[] = {

 0x20, 0x00, 0x00, 0x00, 0x54, 0x46, 0x4c, 0x33, 0x00, 0x00, 0x00, 0x00, 
 0x14, 0x00, 0x20, 0x00, 0x1c, 0x00, 0x18, 0x00, 0x14, 0x00, 0x10, 0x00, 
 0x0c, 0x00, 0x00, 0x00, 0x08, 0x00, 0x04, 0x00, 0x14, 0x00, 0x00, 0x00, 
 0x1c, 0x00, 0x00, 0x00, 0x88, 0x00, 0x00, 0x00, 0xe0, 0x00, 0x00, 0x00, 
 0x70, 0x05, 0x00, 0x00, 0x80, 0x05, 0x00, 0x00, 0x80, 0x16, 0x00, 0x00, 
 0x03, 0x00, 0x00, 0x00, 0x01, 0x00, 0x00, 0x00, 0x04, 0x00, 0x00, 0x00, 
 0x9a, 0xf8, 0xff, 0xff, 0x0c, 0x00, 0x00, 0x00, 0x1c, 0x00, 0x00, 0x00, 
 0x3c, 0x00, 0x00, 0x00, 0x0f, 0x00, 0x00, 0x00, 0x73, 0x65, 0x72, 0x76, 
 0x69, 0x6e, 0x67, 0x5f, 0x64, 0x65, 0x66, 0x61, 0x75, 0x6c, 0x74, 0x00, 
 0x01, 0x00, 0x00, 0x00, 0x04, 0x00, 0x00, 0x00, 0x94, 0xff, 0xff, 0xff, 
 0x15, 0x00, 0x00, 0x00, 0x04, 0x00, 0x00, 0x00, 0x08, 0x00, 0x00, 0x00, 
 0x6f, 0x75, 0x74, 0x70, 0x75, 0x74, 0x5f, 0x30, 0x00, 0x00, 0x00, 0x00, 
 0x01, 0x00, 0x00, 0x00, 0x04, 0x00, 0x00, 0x00, 0xa2, 0xf9, 0xff, 0xff, 
 0x04, 0x00, 0x00, 0x00, 0x0b, 0x00, 0x00, 0x00, 0x69, 0x6e, 0x70, 0x75, 
 0x74, 0x5f, 0x6c, 0x61, 0x79, 0x65, 0x72, 0x00, 0x02, 0x00, 0x00, 0x00, 
 0x34, 0x00, 0x00, 0x00, 0x04, 0x00, 0x00, 0x00, 0xdc, 0xff, 0xff, 0xff, 
 0x18, 0x00, 0x00, 0x00, 0x04, 0x00, 0x00, 0x00, 0x13, 0x00, 0x00, 0x00, 
 0x43, 0x4f, 0x4e, 0x56, 0x45, 0x52, 0x53, 0x49, 0x4f, 0x4e, 0x5f, 0x4d, 
 0x45, 0x54, 0x41, 0x44, 0x41, 0x54, 0x41, 0x00, 0x08, 0x00, 0x0c, 0x00, 
 0x08, 0x00, 0x04, 0x00, 0x08, 0x00, 0x00, 0x00, 0x17, 0x00, 0x00, 0x00, 
 0x04, 0x00, 0x00, 0x00, 0x13, 0x00, 0x00, 0x00, 0x6d, 0x69, 0x6e, 0x5f, 
 0x72, 0x75, 0x6e, 0x74, 0x69, 0x6d, 0x65, 0x5f, 0x76, 0x65, 0x72, 0x73, 
 0x69, 0x6f, 0x6e, 0x00, 0x19, 0x00, 0x00, 0x00, 0x8c, 0x04, 0x00, 0x00, 
 0x84, 0x04, 0x00, 0x00, 0x70, 0x04, 0x00, 0x00, 0x54, 0x04, 0x00, 0x00, 
 0x40, 0x04, 0x00, 0x00, 0x2c, 0x04, 0x00, 0x00, 0x18, 0x04, 0x00, 0x00, 
 0xf4, 0x03, 0x00, 0x00, 0x94, 0x03, 0x00, 0x00, 0x44, 0x03, 0x00, 0x00, 
 0x34, 0x01, 0x00, 0x00, 0x04, 0x01, 0x00, 0x00, 0xe4, 0x00, 0x00, 0x00, 
 0xdc, 0x00, 0x00, 0x00, 0xd4, 0x00, 0x00, 0x00, 0xcc, 0x00, 0x00, 0x00, 
 0xc4, 0x00, 0x00, 0x00, 0xbc, 0x00, 0x00, 0x00, 0xb4, 0x00, 0x00, 0x00, 
 0xac, 0x00, 0x00, 0x00, 0xa4, 0x00, 0x00, 0x00, 0x9c, 0x00, 0x00, 0x00, 
 0x94, 0x00, 0x00, 0x00, 0x74, 0x00, 0x00, 0x00, 0x04, 0x00, 0x00, 0x00, 
 0x7e, 0xfa, 0xff, 0xff, 0x04, 0x00, 0x00, 0x00, 0x60, 0x00, 0x00, 0x00, 
 0x0c, 0x00, 0x00, 0x00, 0x08, 0x00, 0x0e, 0x00, 0x08, 0x00, 0x04, 0x00, 
 0x08, 0x00, 0x00, 0x00, 0x10, 0x00, 0x00, 0x00, 0x28, 0x00, 0x00, 0x00, 
 0x00, 0x00, 0x06, 0x00, 0x08, 0x00, 0x04, 0x00, 0x06, 0x00, 0x00, 0x00, 
 0x04, 0x00, 0x00, 0x00, 0x01, 0x00, 0x00, 0x00, 0xeb, 0x03, 0x00, 0x00, 
 0x0c, 0x00, 0x18, 0x00, 0x14, 0x00, 0x10, 0x00, 0x0c, 0x00, 0x04, 0x00, 
 0x0c, 0x00, 0x00, 0x00, 0xd2, 0x8a, 0x0e, 0xe9, 0x1a, 0x59, 0xbd, 0x38, 
 0x02, 0x00, 0x00, 0x00, 0x02, 0x00, 0x00, 0x00, 0x04, 0x00, 0x00, 0x00, 
 0x06, 0x00, 0x00, 0x00, 0x32, 0x2e, 0x32, 0x31, 0x2e, 0x30, 0x00, 0x00, 
 0xea, 0xfa, 0xff, 0xff, 0x04, 0x00, 0x00, 0x00, 0x10, 0x00, 0x00, 0x00, 
 0x31, 0x2e, 0x31, 0x34, 0x2e, 0x30, 0x00, 0x00, 0x00, 0x00, 0x00, 0x00, 
 0x00, 0x00, 0x00, 0x00, 0x34, 0xec, 0xff, 0xff, 0x38, 0xec, 0xff, 0xff, 
 0x3c, 0xec, 0xff, 0xff, 0x40, 0xec, 0xff, 0xff, 0x44, 0xec, 0xff, 0xff, 
 0x48, 0xec, 0xff, 0xff, 0x4c, 0xec, 0xff, 0xff, 0x50, 0xec, 0xff, 0xff, 
 0x54, 0xec, 0xff, 0xff, 0x58, 0xec, 0xff, 0xff, 0x2e, 0xfb, 0xff, 0xff, 
 0x04, 0x00, 0x00, 0x00, 0x10, 0x00, 0x00, 0x00, 0xff, 0x81, 0x8f, 0x81, 
 0xc6, 0x81, 0x7f, 0x62, 0x75, 0x7f, 0xb3, 0x7f, 0x7f, 0x7a, 0x5d, 0x7f, 
 0x4a, 0xfb, 0xff, 0xff, 0x04, 0x00, 0x00, 0x00, 0x20, 0x00, 0x00, 0x00, 
 0x5e, 0xfe, 0xff, 0xff, 0x00, 0x00, 0x00, 0x00, 0x00, 0x00, 0x00, 0x00, 
 0x02, 0x00, 0x00, 0x00, 0x01, 0x00, 0x00, 0x00, 0xa3, 0x22, 0x00, 0x00, 
 0x03, 0x00, 0x00, 0x00, 0x02, 0x00, 0x00, 0x00, 0x76, 0xfb, 0xff, 0xff, 
 0x04, 0x00, 0x00, 0x00, 0x00, 0x02, 0x00, 0x00, 0x23, 0x17, 0xf6, 0xc6, 
 0xed, 0x06, 0xcb, 0xc6, 0xe7, 0x23, 0x04, 0x3f, 0x23, 0x01, 0x30, 0x10, 
 0xdf, 0x17, 0xe0, 0x50, 0x5d, 0x52, 0x35, 0x4c, 0x19, 0x04, 0x20, 0x6b, 
 0x63, 0x22, 0x7f, 0x58, 0xf2, 0xf6, 0xf5, 0xdb, 0x18, 0x41, 0xb7, 0x04, 
 0xf5, 0xe4, 0xf8, 0x51, 0x4b, 0x38, 0x5f, 0x4b, 0x0a, 0xef, 0x05, 0x39, 
 0x18, 0x95, 0x54, 0x11, 0xfe, 0xe0, 0x1e, 0x9d, 0x81, 0x21, 0x81, 0xae, 
 0xf1, 0x1f, 0x1a, 0x65, 0x27, 0x83, 0x7f, 0x6c, 0x1f, 0x2a, 0xf0, 0x08, 
 0xa8, 0xb2, 0x93, 0xe4, 0x26, 0xdb, 0xf5, 0xdc, 0x6a, 0x64, 0x2a, 0x27, 
 0xd7, 0x14, 0xe5, 0x76, 0x73, 0x50, 0x64, 0x3a, 0xf7, 0x0f, 0xfa, 0xdb, 
 0xea, 0x65, 0xc0, 0xe0, 0xfa, 0xea, 0xf9, 0x1a, 0x24, 0x65, 0x4d, 0x29, 
 0xfe, 0xfb, 0xf2, 0x3f, 0xd4, 0xe6, 0x1e, 0xef, 0xf3, 0x14, 0xe2, 0xcd, 
 0x90, 0x1f, 0x81, 0xa8, 0x14, 0x69, 0xc9, 0x5e, 0xc8, 0xdd, 0x1b, 0xa1, 
 0xf9, 0x7f, 0x1e, 0x91, 0x60, 0x8e, 0x15, 0xfc, 0x92, 0xf6, 0x43, 0x18, 
 0x0e, 0x44, 0xd9, 0xc9, 0x40, 0x08, 0x2d, 0x92, 0x68, 0x48, 0xcd, 0x32, 
 0xf3, 0x03, 0x01, 0x4d, 0x62, 0x81, 0x2d, 0x4a, 0xfa, 0x22, 0xf5, 0x3f, 
 0x27, 0x12, 0x09, 0x1c, 0x1d, 0xee, 0x1a, 0x3d, 0x38, 0x42, 0x4a, 0x47, 
 0x03, 0x12, 0x0c, 0x61, 0x64, 0xf6, 0x5a, 0x4a, 0x06, 0x1d, 0xdb, 0xe9, 
 0xf8, 0x98, 0xe4, 0xf6, 0x1d, 0xda, 0xdf, 0x0b, 0x48, 0x5e, 0x37, 0x42, 
 0x0a, 0xff, 0x0d, 0x62, 0x59, 0x03, 0x6d, 0x55, 0x0d, 0x25, 0xed, 0x3c, 
 0x30, 0x8f, 0x34, 0x7f, 0xf5, 0xe8, 0x12, 0xca, 0xf9, 0x24, 0xef, 0xc5, 
 0x0e, 0xe8, 0xfb, 0xb0, 0xb6, 0x3c, 0xd3, 0xac, 0xf0, 0x03, 0x1b, 0x01, 
 0xed, 0x59, 0xe0, 0x0c, 0xed, 0xf7, 0x1c, 0x5c, 0x7f, 0x5e, 0x5a, 0x7d, 
 0x0f, 0x0f, 0xdd, 0x6a, 0x7f, 0x9a, 0x51, 0x6f, 0x20, 0xe8, 0x0a, 0x2a, 
 0x3d, 0xfb, 0x0e, 0x0d, 0xec, 0xfc, 0x0f, 0x31, 0x48, 0x01, 0x2b, 0x19, 
 0x0b, 0x09, 0xfa, 0x3b, 0xc2, 0xd5, 0xae, 0xe5, 0xe9, 0x00, 0xeb, 0x44, 
 0x21, 0xf2, 0x40, 0x2a, 0xf9, 0x04, 0xef, 0xf1, 0xc6, 0xe0, 0xe1, 0xe3, 
 0x06, 0x13, 0xea, 0xf8, 0xe5, 0x7f, 0xb6, 0xd1, 0xe6, 0x02, 0xf8, 0x40, 
 0x4e, 0x6b, 0x50, 0x3a, 0x02, 0xf0, 0x16, 0x1d, 0x29, 0x7f, 0xee, 0xec, 
 0xe7, 0xfc, 0x16, 0x32, 0x04, 0x44, 0x0e, 0x16, 0x07, 0x18, 0xed, 0xff, 
 0xd4, 0xe4, 0xb6, 0xd3, 0xf9, 0xe7, 0xf5, 0xa1, 0x8f, 0x0a, 0xac, 0xc1, 
 0xf9, 0x46, 0x46, 0x59, 0xf5, 0x3b, 0xcc, 0x90, 0xb0, 0x9d, 0x5e, 0x81, 
 0x8d, 0x99, 0xba, 0x64, 0x6f, 0xfc, 0xba, 0x08, 0x74, 0x40, 0x13, 0x03, 
 0xd8, 0x26, 0x12, 0x8b, 0x83, 0xde, 0x36, 0x4e, 0x1d, 0xf2, 0xf1, 0x63, 
 0x54, 0x2d, 0x58, 0x6a, 0xda, 0xfc, 0x1a, 0x08, 0xe2, 0xb8, 0x9d, 0xc0, 
 0x26, 0x0b, 0x02, 0xa9, 0xd1, 0x6d, 0x81, 0xb6, 0xf9, 0xe2, 0xee, 0x09, 
 0x1d, 0x51, 0x26, 0x1c, 0x0b, 0xfe, 0xde, 0x2b, 0x6c, 0x0d, 0x55, 0x32, 
 0xf8, 0x1a, 0xf0, 0x4c, 0x6d, 0x05, 0x36, 0x4d, 0x04, 0xe9, 0x19, 0x53, 
 0x7f, 0xe9, 0x31, 0x4c, 0x1c, 0x0c, 0x11, 0x32, 0x73, 0x09, 0x57, 0x2b, 
 0xd7, 0x1c, 0xde, 0xab, 0xcc, 0xf1, 0x37, 0xb5, 0x5f, 0x53, 0x37, 0x3a, 
 0xcb, 0x1e, 0xb0, 0x8f, 0xa7, 0x66, 0xc5, 0x81, 0x9e, 0x43, 0xa9, 0x85, 
 0x92, 0xd0, 0x81, 0x2a, 0x06, 0xfd, 0x4e, 0xf3, 0x7b, 0xef, 0x1d, 0xf3, 
 0x9a, 0xc1, 0x56, 0xc9, 0x63, 0x41, 0x9f, 0x00, 0xf2, 0x38, 0x97, 0x73, 
 0xd0, 0x0b, 0x3e, 0x85, 0x77, 0x36, 0x15, 0xa5, 0x03, 0x75, 0x78, 0x85, 
 0x81, 0xc9, 0x40, 0x07, 0x82, 0xfd, 0xff, 0xff, 0x04, 0x00, 0x00, 0x00, 
 0x40, 0x00, 0x00, 0x00, 0x4c, 0xfa, 0xff, 0xff, 0xaf, 0x04, 0x00, 0x00, 
 0x13, 0x0d, 0x00, 0x00, 0xb6, 0x13, 0x00, 0x00, 0xf1, 0xfc, 0xff, 0xff, 
 0xbb, 0xf5, 0xff, 0xff, 0x89, 0xf6, 0xff, 0xff, 0x2b, 0x13, 0x00, 0x00, 
 0x66, 0xfd, 0xff, 0xff, 0x6f, 0x10, 0x00, 0x00, 0x67, 0x13, 0x00, 0x00, 
 0xb8, 0xfd, 0xff, 0xff, 0x0a, 0x13, 0x00, 0x00, 0x8e, 0xf4, 0xff, 0xff, 
 0x30, 0xfa, 0xff, 0xff, 0x00, 0x00, 0x00, 0x00, 0xce, 0xfd, 0xff, 0xff, 
 0x04, 0x00, 0x00, 0x00, 0x50, 0x00, 0x00, 0x00, 0x4e, 0x6a, 0x93, 0x73, 
 0xf0, 0xc3, 0x1d, 0xcd, 0x94, 0x81, 0x58, 0x18, 0xa4, 0x2a, 0x18, 0xff, 
 0x49, 0xab, 0x4a, 0x81, 0x14, 0x29, 0xf7, 0x31, 0xe1, 0x1a, 0x82, 0x12, 
 0x26, 0x23, 0xdb, 0x22, 0x38, 0xf9, 0xff, 0xf7, 0x11, 0x41, 0x55, 0x81, 
 0x37, 0xbd, 0x99, 0xee, 0x85, 0x2c, 0x10, 0x02, 0x83, 0xff, 0x07, 0xfc, 
 0x26, 0x09, 0xa0, 0x81, 0x4a, 0x0b, 0x50, 0xe2, 0x4a, 0x15, 0x30, 0x08, 
 0xac, 0xb5, 0x1e, 0x43, 0x07, 0x94, 0xea, 0x48, 0x81, 0x42, 0x6a, 0xd6, 
 0x2b, 0x8b, 0xfe, 0xee, 0x2a, 0xfe, 0xff, 0xff, 0x04, 0x00, 0x00, 0x00, 
 0x14, 0x00, 0x00, 0x00, 0x63, 0xff, 0xff, 0xff, 0x30, 0xff, 0xff, 0xff, 
 0xab, 0xfe, 0xff, 0xff, 0x95, 0xff, 0xff, 0xff, 0x29, 0x02, 0x00, 0x00, 
 0x4a, 0xfe, 0xff, 0xff, 0x04, 0x00, 0x00, 0x00, 0x04, 0x00, 0x00, 0x00, 
 0x20, 0x00, 0x00, 0x00, 0x5a, 0xfe, 0xff, 0xff, 0x04, 0x00, 0x00, 0x00, 
 0x04, 0x00, 0x00, 0x00, 0x01, 0x00, 0x00, 0x00, 0x6a, 0xfe, 0xff, 0xff, 
 0x04, 0x00, 0x00, 0x00, 0x04, 0x00, 0x00, 0x00, 0x00, 0x00, 0x00, 0x00, 
 0x7a, 0xfe, 0xff, 0xff, 0x04, 0x00, 0x00, 0x00, 0x0c, 0x00, 0x00, 0x00, 
 0xff, 0xff, 0xff, 0xff, 0x04, 0x00, 0x00, 0x00, 0x08, 0x00, 0x00, 0x00, 
 0x92, 0xfe, 0xff, 0xff, 0x04, 0x00, 0x00, 0x00, 0x04, 0x00, 0x00, 0x00, 
 0xfd, 0xff, 0xff, 0xff, 0xd0, 0xef, 0xff, 0xff, 0xd4, 0xef, 0xff, 0xff, 
 0x0f, 0x00, 0x00, 0x00, 0x4d, 0x4c, 0x49, 0x52, 0x20, 0x43, 0x6f, 0x6e, 
 0x76, 0x65, 0x72, 0x74, 0x65, 0x64, 0x2e, 0x00, 0x01, 0x00, 0x00, 0x00, 
 0x14, 0x00, 0x00, 0x00, 0x00, 0x00, 0x0e, 0x00, 0x18, 0x00, 0x14, 0x00, 
 0x10, 0x00, 0x0c, 0x00, 0x08, 0x00, 0x04, 0x00, 0x0e, 0x00, 0x00, 0x00, 
 0x14, 0x00, 0x00, 0x00, 0x1c, 0x00, 0x00, 0x00, 0xa0, 0x02, 0x00, 0x00, 
 0xa4, 0x02, 0x00, 0x00, 0xa8, 0x02, 0x00, 0x00, 0x04, 0x00, 0x00, 0x00, 
 0x6d, 0x61, 0x69, 0x6e, 0x00, 0x00, 0x00, 0x00, 0x0a, 0x00, 0x00, 0x00, 
 0x58, 0x02, 0x00, 0x00, 0xf4, 0x01, 0x00, 0x00, 0xbc, 0x01, 0x00, 0x00, 
 0x74, 0x01, 0x00, 0x00, 0x14, 0x01, 0x00, 0x00, 0xd4, 0x00, 0x00, 0x00, 
 0xac, 0x00, 0x00, 0x00, 0x70, 0x00, 0x00, 0x00, 0x38, 0x00, 0x00, 0x00, 
 0x04, 0x00, 0x00, 0x00, 0x3e, 0xfe, 0xff, 0xff, 0x14, 0x00, 0x00, 0x00, 
 0x00, 0x00, 0x00, 0x09, 0x14, 0x00, 0x00, 0x00, 0x18, 0x00, 0x00, 0x00, 
 0x07, 0x00, 0x00, 0x00, 0x3e, 0xff, 0xff, 0xff, 0x00, 0x00, 0x80, 0x3f, 
 0x01, 0x00, 0x00, 0x00, 0x15, 0x00, 0x00, 0x00, 0x01, 0x00, 0x00, 0x00, 
 0x14, 0x00, 0x00, 0x00, 0x6e, 0xfe, 0xff, 0xff, 0x14, 0x00, 0x00, 0x00, 
 0x00, 0x00, 0x00, 0x08, 0x10, 0x00, 0x00, 0x00, 0x14, 0x00, 0x00, 0x00, 
 0x06, 0x00, 0x00, 0x00, 0x9c, 0xf0, 0xff, 0xff, 0x01, 0x00, 0x00, 0x00, 
 0x14, 0x00, 0x00, 0x00, 0x03, 0x00, 0x00, 0x00, 0x13, 0x00, 0x00, 0x00, 
 0x07, 0x00, 0x00, 0x00, 0x06, 0x00, 0x00, 0x00, 0xa2, 0xfe, 0xff, 0xff, 
 0x14, 0x00, 0x00, 0x00, 0x00, 0x00, 0x00, 0x08, 0x14, 0x00, 0x00, 0x00, 
 0x18, 0x00, 0x00, 0x00, 0x06, 0x00, 0x00, 0x00, 0x0a, 0xff, 0xff, 0xff, 
 0x00, 0x00, 0x00, 0x01, 0x01, 0x00, 0x00, 0x00, 0x13, 0x00, 0x00, 0x00, 
 0x03, 0x00, 0x00, 0x00, 0x12, 0x00, 0x00, 0x00, 0x09, 0x00, 0x00, 0x00, 
 0x08, 0x00, 0x00, 0x00, 0x0a, 0xff, 0xff, 0xff, 0x0c, 0x00, 0x00, 0x00, 
 0x10, 0x00, 0x00, 0x00, 0x02, 0x00, 0x00, 0x00, 0x01, 0x00, 0x00, 0x00, 
 0x12, 0x00, 0x00, 0x00, 0x02, 0x00, 0x00, 0x00, 0x0d, 0x00, 0x00, 0x00, 
 0x11, 0x00, 0x00, 0x00, 0x76, 0xff, 0xff, 0xff, 0x1c, 0x00, 0x00, 0x00, 
 0x00, 0x00, 0x00, 0x3b, 0x1c, 0x00, 0x00, 0x00, 0x20, 0x00, 0x00, 0x00, 
 0x05, 0x00, 0x00, 0x00, 0x00, 0x00, 0x06, 0x00, 0x08, 0x00, 0x04, 0x00, 
 0x06, 0x00, 0x00, 0x00, 0x02, 0x00, 0x00, 0x00, 0x01, 0x00, 0x00, 0x00, 
 0x11, 0x00, 0x00, 0x00, 0x02, 0x00, 0x00, 0x00, 0x10, 0x00, 0x00, 0x00, 
 0x05, 0x00, 0x00, 0x00, 0xb2, 0xff, 0xff, 0xff, 0x24, 0x00, 0x00, 0x00, 
 0x00, 0x00, 0x00, 0x20, 0x24, 0x00, 0x00, 0x00, 0x28, 0x00, 0x00, 0x00, 
 0x04, 0x00, 0x00, 0x00, 0x00, 0x00, 0x0e, 0x00, 0x08, 0x00, 0x00, 0x00, 
 0x00, 0x00, 0x00, 0x00, 0x00, 0x00, 0x04, 0x00, 0x0e, 0x00, 0x00, 0x00, 
 0x01, 0x00, 0x00, 0x00, 0x01, 0x00, 0x00, 0x00, 0x10, 0x00, 0x00, 0x00, 
 0x04, 0x00, 0x00, 0x00, 0x0f, 0x00, 0x00, 0x00, 0x03, 0x00, 0x00, 0x00, 
 0x04, 0x00, 0x00, 0x00, 0x04, 0x00, 0x00, 0x00, 0x00, 0x00, 0x0e, 0x00, 
 0x1a, 0x00, 0x14, 0x00, 0x10, 0x00, 0x0c, 0x00, 0x0b, 0x00, 0x04, 0x00, 
 0x0e, 0x00, 0x00, 0x00, 0x1c, 0x00, 0x00, 0x00, 0x00, 0x00, 0x00, 0x37, 
 0x1c, 0x00, 0x00, 0x00, 0x20, 0x00, 0x00, 0x00, 0x03, 0x00, 0x00, 0x00, 
 0x00, 0x00, 0x06, 0x00, 0x08, 0x00, 0x07, 0x00, 0x06, 0x00, 0x00, 0x00, 
 0x00, 0x00, 0x00, 0x02, 0x01, 0x00, 0x00, 0x00, 0x0f, 0x00, 0x00, 0x00, 
 0x01, 0x00, 0x00, 0x00, 0x0e, 0x00, 0x00, 0x00, 0x00, 0x00, 0x0a, 0x00, 
 0x10, 0x00, 0x0c, 0x00, 0x08, 0x00, 0x04, 0x00, 0x0a, 0x00, 0x00, 0x00, 
 0x0c, 0x00, 0x00, 0x00, 0x10, 0x00, 0x00, 0x00, 0x02, 0x00, 0x00, 0x00, 
 0x01, 0x00, 0x00, 0x00, 0x0e, 0x00, 0x00, 0x00, 0x02, 0x00, 0x00, 0x00, 
 0x0d, 0x00, 0x00, 0x00, 0x02, 0x00, 0x00, 0x00, 0x00, 0x00, 0x0e, 0x00, 
 0x18, 0x00, 0x14, 0x00, 0x10, 0x00, 0x0c, 0x00, 0x0b, 0x00, 0x04, 0x00, 
 0x0e, 0x00, 0x00, 0x00, 0x20, 0x00, 0x00, 0x00, 0x00, 0x00, 0x00, 0x01, 
 0x2c, 0x00, 0x00, 0x00, 0x30, 0x00, 0x00, 0x00, 0x01, 0x00, 0x00, 0x00, 
 0x0c, 0x00, 0x14, 0x00, 0x13, 0x00, 0x0c, 0x00, 0x08, 0x00, 0x07, 0x00, 
 0x0c, 0x00, 0x00, 0x00, 0x00, 0x00, 0x00, 0x01, 0x01, 0x00, 0x00, 0x00, 
 0x01, 0x00, 0x00, 0x00, 0x00, 0x00, 0x00, 0x01, 0x01, 0x00, 0x00, 0x00, 
 0x0d, 0x00, 0x00, 0x00, 0x03, 0x00, 0x00, 0x00, 0x0c, 0x00, 0x00, 0x00, 
 0x0b, 0x00, 0x00, 0x00, 0x0a, 0x00, 0x00, 0x00, 0x00, 0x00, 0x0e, 0x00, 
 0x14, 0x00, 0x00, 0x00, 0x10, 0x00, 0x0c, 0x00, 0x0b, 0x00, 0x04, 0x00, 
 0x0e, 0x00, 0x00, 0x00, 0x10, 0x00, 0x00, 0x00, 0x00, 0x00, 0x00, 0x34, 
 0x0c, 0x00, 0x00, 0x00, 0x10, 0x00, 0x00, 0x00, 0x98, 0xf2, 0xff, 0xff, 
 0x01, 0x00, 0x00, 0x00, 0x0c, 0x00, 0x00, 0x00, 0x02, 0x00, 0x00, 0x00, 
 0x00, 0x00, 0x00, 0x00, 0x01, 0x00, 0x00, 0x00, 0x01, 0x00, 0x00, 0x00, 
 0x15, 0x00, 0x00, 0x00, 0x01, 0x00, 0x00, 0x00, 0x00, 0x00, 0x00, 0x00, 
 0x16, 0x00, 0x00, 0x00, 0x98, 0x0d, 0x00, 0x00, 0x1c, 0x0d, 0x00, 0x00, 
 0xa8, 0x0c, 0x00, 0x00, 0x4c, 0x0c, 0x00, 0x00, 0x0c, 0x0c, 0x00, 0x00, 
 0xb8, 0x0b, 0x00, 0x00, 0x18, 0x0b, 0x00, 0x00, 0x74, 0x0a, 0x00, 0x00, 
 0x38, 0x09, 0x00, 0x00, 0x14, 0x08, 0x00, 0x00, 0xd0, 0x06, 0x00, 0x00, 
 0xfc, 0x05, 0x00, 0x00, 0x58, 0x05, 0x00, 0x00, 0x44, 0x04, 0x00, 0x00, 
 0x54, 0x03, 0x00, 0x00, 0x04, 0x03, 0x00, 0x00, 0xb0, 0x02, 0x00, 0x00, 
 0x58, 0x02, 0x00, 0x00, 0xd8, 0x01, 0x00, 0x00, 0x24, 0x01, 0x00, 0x00, 
 0x80, 0x00, 0x00, 0x00, 0x04, 0x00, 0x00, 0x00, 0xd6, 0xf2, 0xff, 0xff, 
 0x00, 0x00, 0x00, 0x01, 0x18, 0x00, 0x00, 0x00, 0x20, 0x00, 0x00, 0x00, 
 0x3c, 0x00, 0x00, 0x00, 0x16, 0x00, 0x00, 0x00, 0x00, 0x00, 0x00, 0x09, 
 0x50, 0x00, 0x00, 0x00, 0x02, 0x00, 0x00, 0x00, 0xff, 0xff, 0xff, 0xff, 
 0x05, 0x00, 0x00, 0x00, 0xbc, 0xf2, 0xff, 0xff, 0x08, 0x00, 0x00, 0x00, 
 0x10, 0x00, 0x00, 0x00, 0x01, 0x00, 0x00, 0x00, 0x80, 0xff, 0xff, 0xff, 
 0xff, 0xff, 0xff, 0xff, 0x01, 0x00, 0x00, 0x00, 0x00, 0x00, 0x80, 0x3b, 
 0x1b, 0x00, 0x00, 0x00, 0x53, 0x74, 0x61, 0x74, 0x65, 0x66, 0x75, 0x6c, 
 0x50, 0x61, 0x72, 0x74, 0x69, 0x74, 0x69, 0x6f, 0x6e, 0x65, 0x64, 0x43, 
 0x61, 0x6c, 0x6c, 0x5f, 0x31, 0x3a, 0x30, 0x00, 0x02, 0x00, 0x00, 0x00, 
 0x01, 0x00, 0x00, 0x00, 0x05, 0x00, 0x00, 0x00, 0x4e, 0xf3, 0xff, 0xff, 
 0x00, 0x00, 0x00, 0x01, 0x18, 0x00, 0x00, 0x00, 0x20, 0x00, 0x00, 0x00, 
 0x40, 0x00, 0x00, 0x00, 0x15, 0x00, 0x00, 0x00, 0x00, 0x00, 0x00, 0x09, 
 0x78, 0x00, 0x00, 0x00, 0x02, 0x00, 0x00, 0x00, 0xff, 0xff, 0xff, 0xff, 
 0x05, 0x00, 0x00, 0x00, 0x34, 0xf3, 0xff, 0xff, 0x08, 0x00, 0x00, 0x00, 
 0x14, 0x00, 0x00, 0x00, 0x01, 0x00, 0x00, 0x00, 0x21, 0x00, 0x00, 0x00, 
 0x00, 0x00, 0x00, 0x00, 0x00, 0x00, 0x00, 0x00, 0x01, 0x00, 0x00, 0x00, 
 0x54, 0x5c, 0xe0, 0x3e, 0x3c, 0x00, 0x00, 0x00, 0x73, 0x65, 0x71, 0x75, 
 0x65, 0x6e, 0x74, 0x69, 0x61, 0x6c, 0x5f, 0x31, 0x2f, 0x64, 0x65, 0x6e, 
 0x73, 0x65, 0x5f, 0x31, 0x5f, 0x32, 0x2f, 0x4d, 0x61, 0x74, 0x4d, 0x75, 
 0x6c, 0x3b, 0x73, 0x65, 0x71, 0x75, 0x65, 0x6e, 0x74, 0x69, 0x61, 0x6c, 
 0x5f, 0x31, 0x2f, 0x64, 0x65, 0x6e, 0x73, 0x65, 0x5f, 0x31, 0x5f, 0x32, 
 0x2f, 0x42, 0x69, 0x61, 0x73, 0x41, 0x64, 0x64, 0x00, 0x00, 0x00, 0x00, 
 0x02, 0x00, 0x00, 0x00, 0x01, 0x00, 0x00, 0x00, 0x05, 0x00, 0x00, 0x00, 
 0xee, 0xf3, 0xff, 0xff, 0x00, 0x00, 0x00, 0x01, 0x18, 0x00, 0x00, 0x00, 
 0x20, 0x00, 0x00, 0x00, 0x3c, 0x00, 0x00, 0x00, 0x14, 0x00, 0x00, 0x00, 
 0x00, 0x00, 0x00, 0x09, 0x88, 0x00, 0x00, 0x00, 0x02, 0x00, 0x00, 0x00, 
 0xff, 0xff, 0xff, 0xff, 0x10, 0x00, 0x00, 0x00, 0xd4, 0xf3, 0xff, 0xff, 
 0x08, 0x00, 0x00, 0x00, 0x10, 0x00, 0x00, 0x00, 0x01, 0x00, 0x00, 0x00, 
 0x80, 0xff, 0xff, 0xff, 0xff, 0xff, 0xff, 0xff, 0x01, 0x00, 0x00, 0x00, 
 0x22, 0xfc, 0xa7, 0x3d, 0x52, 0x00, 0x00, 0x00, 0x73, 0x65, 0x71, 0x75, 
 0x65, 0x6e, 0x74, 0x69, 0x61, 0x6c, 0x5f, 0x31, 0x2f, 0x64, 0x65, 0x6e, 
 0x73, 0x65, 0x5f, 0x31, 0x2f, 0x4d, 0x61, 0x74, 0x4d, 0x75, 0x6c, 0x3b, 
 0x73, 0x65, 0x71, 0x75, 0x65, 0x6e, 0x74, 0x69, 0x61, 0x6c, 0x5f, 0x31, 
 0x2f, 0x64, 0x65, 0x6e, 0x73, 0x65, 0x5f, 0x31, 0x2f, 0x52, 0x65, 0x6c, 
 0x75, 0x3b, 0x73, 0x65, 0x71, 0x75, 0x65, 0x6e, 0x74, 0x69, 0x61, 0x6c, 
 0x5f, 0x31, 0x2f, 0x64, 0x65, 0x6e, 0x73, 0x65, 0x5f, 0x31, 0x2f, 0x42, 
 0x69, 0x61, 0x73, 0x41, 0x64, 0x64, 0x00, 0x00, 0x02, 0x00, 0x00, 0x00, 
 0x01, 0x00, 0x00, 0x00, 0x10, 0x00, 0x00, 0x00, 0x9e, 0xf4, 0xff, 0xff, 
 0x00, 0x00, 0x00, 0x01, 0x18, 0x00, 0x00, 0x00, 0x20, 0x00, 0x00, 0x00, 
 0x3c, 0x00, 0x00, 0x00, 0x13, 0x00, 0x00, 0x00, 0x00, 0x00, 0x00, 0x09, 
 0x54, 0x00, 0x00, 0x00, 0x02, 0x00, 0x00, 0x00, 0xff, 0xff, 0xff, 0xff, 
 0x20, 0x00, 0x00, 0x00, 0x84, 0xf4, 0xff, 0xff, 0x08, 0x00, 0x00, 0x00, 
 0x10, 0x00, 0x00, 0x00, 0x01, 0x00, 0x00, 0x00, 0x80, 0xff, 0xff, 0xff, 
 0xff, 0xff, 0xff, 0xff, 0x01, 0x00, 0x00, 0x00, 0xae, 0xac, 0x26, 0x3c, 
 0x1e, 0x00, 0x00, 0x00, 0x73, 0x65, 0x71, 0x75, 0x65, 0x6e, 0x74, 0x69, 
 0x61, 0x6c, 0x5f, 0x31, 0x2f, 0x66, 0x6c, 0x61, 0x74, 0x74, 0x65, 0x6e, 
 0x5f, 0x31, 0x2f, 0x52, 0x65, 0x73, 0x68, 0x61, 0x70, 0x65, 0x00, 0x00, 
 0x02, 0x00, 0x00, 0x00, 0x01, 0x00, 0x00, 0x00, 0x20, 0x00, 0x00, 0x00, 
 0x92, 0xf5, 0xff, 0xff, 0x00, 0x00, 0x00, 0x01, 0x14, 0x00, 0x00, 0x00, 
 0x14, 0x00, 0x00, 0x00, 0x12, 0x00, 0x00, 0x00, 0x00, 0x00, 0x00, 0x02, 
 0x34, 0x00, 0x00, 0x00, 0x7c, 0xf5, 0xff, 0xff, 0x24, 0x00, 0x00, 0x00, 
 0x73, 0x65, 0x71, 0x75, 0x65, 0x6e, 0x74, 0x69, 0x61, 0x6c, 0x5f, 0x31, 
 0x2f, 0x66, 0x6c, 0x61, 0x74, 0x74, 0x65, 0x6e, 0x5f, 0x31, 0x2f, 0x52, 
 0x65, 0x73, 0x68, 0x61, 0x70, 0x65, 0x2f, 0x73, 0x68, 0x61, 0x70, 0x65, 
 0x00, 0x00, 0x00, 0x00, 0x01, 0x00, 0x00, 0x00, 0x02, 0x00, 0x00, 0x00, 
 0xe6, 0xf5, 0xff, 0xff, 0x00, 0x00, 0x00, 0x01, 0x14, 0x00, 0x00, 0x00, 
 0x14, 0x00, 0x00, 0x00, 0x11, 0x00, 0x00, 0x00, 0x00, 0x00, 0x00, 0x02, 
 0x34, 0x00, 0x00, 0x00, 0xd0, 0xf5, 0xff, 0xff, 0x24, 0x00, 0x00, 0x00, 
 0x73, 0x65, 0x71, 0x75, 0x65, 0x6e, 0x74, 0x69, 0x61, 0x6c, 0x5f, 0x31, 
 0x2f, 0x66, 0x6c, 0x61, 0x74, 0x74, 0x65, 0x6e, 0x5f, 0x31, 0x2f, 0x73, 
 0x74, 0x72, 0x69, 0x64, 0x65, 0x64, 0x5f, 0x73, 0x6c, 0x69, 0x63, 0x65, 
 0x00, 0x00, 0x00, 0x00, 0x00, 0x00, 0x00, 0x00, 0x36, 0xf6, 0xff, 0xff, 
 0x00, 0x00, 0x00, 0x01, 0x14, 0x00, 0x00, 0x00, 0x14, 0x00, 0x00, 0x00, 
 0x10, 0x00, 0x00, 0x00, 0x00, 0x00, 0x00, 0x02, 0x2c, 0x00, 0x00, 0x00, 
 0x20, 0xf6, 0xff, 0xff, 0x1c, 0x00, 0x00, 0x00, 0x73, 0x65, 0x71, 0x75, 
 0x65, 0x6e, 0x74, 0x69, 0x61, 0x6c, 0x5f, 0x31, 0x2f, 0x66, 0x6c, 0x61, 
 0x74, 0x74, 0x65, 0x6e, 0x5f, 0x31, 0x2f, 0x53, 0x68, 0x61, 0x70, 0x65, 
 0x00, 0x00, 0x00, 0x00, 0x01, 0x00, 0x00, 0x00, 0x03, 0x00, 0x00, 0x00, 
 0x0a, 0xf6, 0xff, 0xff, 0x00, 0x00, 0x00, 0x01, 0x18, 0x00, 0x00, 0x00, 
 0x24, 0x00, 0x00, 0x00, 0x44, 0x00, 0x00, 0x00, 0x0f, 0x00, 0x00, 0x00, 
 0x00, 0x00, 0x00, 0x09, 0xc0, 0x00, 0x00, 0x00, 0x03, 0x00, 0x00, 0x00, 
 0xff, 0xff, 0xff, 0xff, 0x04, 0x00, 0x00, 0x00, 0x08, 0x00, 0x00, 0x00, 
 0xf4, 0xf5, 0xff, 0xff, 0x08, 0x00, 0x00, 0x00, 0x14, 0x00, 0x00, 0x00, 
 0x01, 0x00, 0x00, 0x00, 0x80, 0xff, 0xff, 0xff, 0xff, 0xff, 0xff, 0xff, 
 0x00, 0x00, 0x00, 0x00, 0x01, 0x00, 0x00, 0x00, 0xae, 0xac, 0x26, 0x3c, 
 0x80, 0x00, 0x00, 0x00, 0x73, 0x65, 0x71, 0x75, 0x65, 0x6e, 0x74, 0x69, 
 0x61, 0x6c, 0x5f, 0x31, 0x2f, 0x63, 0x6f, 0x6e, 0x76, 0x31, 0x64, 0x5f, 
 0x31, 0x2f, 0x52, 0x65, 0x6c, 0x75, 0x3b, 0x73, 0x65, 0x71, 0x75, 0x65, 
 0x6e, 0x74, 0x69, 0x61, 0x6c, 0x5f, 0x31, 0x2f, 0x63, 0x6f, 0x6e, 0x76, 
 0x31, 0x64, 0x5f, 0x31, 0x2f, 0x42, 0x69, 0x61, 0x73, 0x41, 0x64, 0x64, 
 0x3b, 0x73, 0x65, 0x71, 0x75, 0x65, 0x6e, 0x74, 0x69, 0x61, 0x6c, 0x5f, 
 0x31, 0x2f, 0x63, 0x6f, 0x6e, 0x76, 0x31, 0x64, 0x5f, 0x31, 0x2f, 0x63, 
 0x6f, 0x6e, 0x76, 0x6f, 0x6c, 0x75, 0x74, 0x69, 0x6f, 0x6e, 0x2f, 0x53, 
 0x71, 0x75, 0x65, 0x65, 0x7a, 0x65, 0x3b, 0x73, 0x65, 0x71, 0x75, 0x65, 
 0x6e, 0x74, 0x69, 0x61, 0x6c, 0x5f, 0x31, 0x2f, 0x63, 0x6f, 0x6e, 0x76, 
 0x31, 0x64, 0x5f, 0x31, 0x2f, 0x53, 0x71, 0x75, 0x65, 0x65, 0x7a, 0x65, 
 0x00, 0x00, 0x00, 0x00, 0x03, 0x00, 0x00, 0x00, 0x01, 0x00, 0x00, 0x00, 
 0x04, 0x00, 0x00, 0x00, 0x08, 0x00, 0x00, 0x00, 0xf6, 0xf6, 0xff, 0xff, 
 0x00, 0x00, 0x00, 0x01, 0x18, 0x00, 0x00, 0x00, 0x28, 0x00, 0x00, 0x00, 
 0x44, 0x00, 0x00, 0x00, 0x0e, 0x00, 0x00, 0x00, 0x00, 0x00, 0x00, 0x09, 
 0xe0, 0x00, 0x00, 0x00, 0x04, 0x00, 0x00, 0x00, 0xff, 0xff, 0xff, 0xff, 
 0x01, 0x00, 0x00, 0x00, 0x04, 0x00, 0x00, 0x00, 0x08, 0x00, 0x00, 0x00, 
 0xe4, 0xf6, 0xff, 0xff, 0x08, 0x00, 0x00, 0x00, 0x10, 0x00, 0x00, 0x00, 
 0x01, 0x00, 0x00, 0x00, 0x80, 0xff, 0xff, 0xff, 0xff, 0xff, 0xff, 0xff, 
 0x01, 0x00, 0x00, 0x00, 0xae, 0xac, 0x26, 0x3c, 0xa3, 0x00, 0x00, 0x00, 
 0x73, 0x65, 0x71, 0x75, 0x65, 0x6e, 0x74, 0x69, 0x61, 0x6c, 0x5f, 0x31, 
 0x2f, 0x63, 0x6f, 0x6e, 0x76, 0x31, 0x64, 0x5f, 0x31, 0x2f, 0x52, 0x65, 
 0x6c, 0x75, 0x3b, 0x73, 0x65, 0x71, 0x75, 0x65, 0x6e, 0x74, 0x69, 0x61, 
 0x6c, 0x5f, 0x31, 0x2f, 0x63, 0x6f, 0x6e, 0x76, 0x31, 0x64, 0x5f, 0x31, 
 0x2f, 0x42, 0x69, 0x61, 0x73, 0x41, 0x64, 0x64, 0x3b, 0x73, 0x65, 0x71, 
 0x75, 0x65, 0x6e, 0x74, 0x69, 0x61, 0x6c, 0x5f, 0x31, 0x2f, 0x63, 0x6f, 
 0x6e, 0x76, 0x31, 0x64, 0x5f, 0x31, 0x2f, 0x63, 0x6f, 0x6e, 0x76, 0x6f, 
 0x6c, 0x75, 0x74, 0x69, 0x6f, 0x6e, 0x2f, 0x53, 0x71, 0x75, 0x65, 0x65, 
 0x7a, 0x65, 0x3b, 0x73, 0x65, 0x71, 0x75, 0x65, 0x6e, 0x74, 0x69, 0x61, 
 0x6c, 0x5f, 0x31, 0x2f, 0x63, 0x6f, 0x6e, 0x76, 0x31, 0x64, 0x5f, 0x31, 
 0x2f, 0x53, 0x71, 0x75, 0x65, 0x65, 0x7a, 0x65, 0x3b, 0x73, 0x65, 0x71, 
 0x75, 0x65, 0x6e, 0x74, 0x69, 0x61, 0x6c, 0x5f, 0x31, 0x2f, 0x63, 0x6f, 
 0x6e, 0x76, 0x31, 0x64, 0x5f, 0x31, 0x2f, 0x63, 0x6f, 0x6e, 0x76, 0x6f, 
 0x6c, 0x75, 0x74, 0x69, 0x6f, 0x6e, 0x31, 0x00, 0x04, 0x00, 0x00, 0x00, 
 0x01, 0x00, 0x00, 0x00, 0x01, 0x00, 0x00, 0x00, 0x04, 0x00, 0x00, 0x00, 
 0x08, 0x00, 0x00, 0x00, 0x06, 0xf8, 0xff, 0xff, 0x00, 0x00, 0x00, 0x01, 
 0x18, 0x00, 0x00, 0x00, 0x28, 0x00, 0x00, 0x00, 0x48, 0x00, 0x00, 0x00, 
 0x0d, 0x00, 0x00, 0x00, 0x00, 0x00, 0x00, 0x09, 0x70, 0x00, 0x00, 0x00, 
 0x04, 0x00, 0x00, 0x00, 0xff, 0xff, 0xff, 0xff, 0x01, 0x00, 0x00, 0x00, 
 0x05, 0x00, 0x00, 0x00, 0x01, 0x00, 0x00, 0x00, 0xf4, 0xf7, 0xff, 0xff, 
 0x08, 0x00, 0x00, 0x00, 0x14, 0x00, 0x00, 0x00, 0x01, 0x00, 0x00, 0x00, 
 0x80, 0xff, 0xff, 0xff, 0xff, 0xff, 0xff, 0xff, 0x00, 0x00, 0x00, 0x00, 
 0x01, 0x00, 0x00, 0x00, 0x7b, 0x54, 0x80, 0x3b, 0x2c, 0x00, 0x00, 0x00, 
 0x73, 0x65, 0x71, 0x75, 0x65, 0x6e, 0x74, 0x69, 0x61, 0x6c, 0x5f, 0x31, 
 0x2f, 0x63, 0x6f, 0x6e, 0x76, 0x31, 0x64, 0x5f, 0x31, 0x2f, 0x63, 0x6f, 
 0x6e, 0x76, 0x6f, 0x6c, 0x75, 0x74, 0x69, 0x6f, 0x6e, 0x2f, 0x45, 0x78, 
 0x70, 0x61, 0x6e, 0x64, 0x44, 0x69, 0x6d, 0x73, 0x00, 0x00, 0x00, 0x00, 
 0x04, 0x00, 0x00, 0x00, 0x01, 0x00, 0x00, 0x00, 0x01, 0x00, 0x00, 0x00, 
 0x05, 0x00, 0x00, 0x00, 0x01, 0x00, 0x00, 0x00, 0x1e, 0xf9, 0xff, 0xff, 
 0x00, 0x00, 0x00, 0x01, 0x14, 0x00, 0x00, 0x00, 0x88, 0x00, 0x00, 0x00, 
 0x0c, 0x00, 0x00, 0x00, 0x00, 0x00, 0x00, 0x09, 0xa4, 0x00, 0x00, 0x00, 
 0x7c, 0xf8, 0xff, 0xff, 0x08, 0x00, 0x00, 0x00, 0x4c, 0x00, 0x00, 0x00, 
 0x08, 0x00, 0x00, 0x00, 0x00, 0x00, 0x00, 0x00, 0x00, 0x00, 0x00, 0x00, 
 0x00, 0x00, 0x00, 0x00, 0x00, 0x00, 0x00, 0x00, 0x00, 0x00, 0x00, 0x00, 
 0x00, 0x00, 0x00, 0x00, 0x00, 0x00, 0x00, 0x00, 0x00, 0x00, 0x00, 0x00, 
 0x00, 0x00, 0x00, 0x00, 0x00, 0x00, 0x00, 0x00, 0x00, 0x00, 0x00, 0x00, 
 0x00, 0x00, 0x00, 0x00, 0x00, 0x00, 0x00, 0x00, 0x00, 0x00, 0x00, 0x00, 
 0x00, 0x00, 0x00, 0x00, 0x00, 0x00, 0x00, 0x00, 0x00, 0x00, 0x00, 0x00, 
 0x08, 0x00, 0x00, 0x00, 0xfc, 0x27, 0x70, 0x3b, 0x71, 0x8e, 0x3d, 0x3b, 
 0xe0, 0xcc, 0x6a, 0x3b, 0x1b, 0xa7, 0x30, 0x3c, 0x14, 0xa7, 0x0e, 0x3c, 
 0xf4, 0x24, 0x30, 0x3c, 0xb5, 0x08, 0x0e, 0x3c, 0x46, 0x9e, 0x45, 0x3c, 
 0x21, 0x00, 0x00, 0x00, 0x73, 0x65, 0x71, 0x75, 0x65, 0x6e, 0x74, 0x69, 
 0x61, 0x6c, 0x5f, 0x31, 0x2f, 0x63, 0x6f, 0x6e, 0x76, 0x31, 0x64, 0x5f, 
 0x31, 0x2f, 0x63, 0x6f, 0x6e, 0x76, 0x6f, 0x6c, 0x75, 0x74, 0x69, 0x6f, 
 0x6e, 0x00, 0x00, 0x00, 0x04, 0x00, 0x00, 0x00, 0x08, 0x00, 0x00, 0x00, 
 0x01, 0x00, 0x00, 0x00, 0x02, 0x00, 0x00, 0x00, 0x01, 0x00, 0x00, 0x00, 
 0xee, 0xf9, 0xff, 0xff, 0x00, 0x00, 0x00, 0x01, 0x14, 0x00, 0x00, 0x00, 
 0x84, 0x00, 0x00, 0x00, 0x0b, 0x00, 0x00, 0x00, 0x00, 0x00, 0x00, 0x02, 
 0x20, 0x01, 0x00, 0x00, 0x4c, 0xf9, 0xff, 0xff, 0x08, 0x00, 0x00, 0x00, 
 0x48, 0x00, 0x00, 0x00, 0x08, 0x00, 0x00, 0x00, 0x00, 0x00, 0x00, 0x00, 
 0x00, 0x00, 0x00, 0x00, 0x00, 0x00, 0x00, 0x00, 0x00, 0x00, 0x00, 0x00, 
 0x00, 0x00, 0x00, 0x00, 0x00, 0x00, 0x00, 0x00, 0x00, 0x00, 0x00, 0x00, 
 0x00, 0x00, 0x00, 0x00, 0x00, 0x00, 0x00, 0x00, 0x00, 0x00, 0x00, 0x00, 
 0x00, 0x00, 0x00, 0x00, 0x00, 0x00, 0x00, 0x00, 0x00, 0x00, 0x00, 0x00, 
 0x00, 0x00, 0x00, 0x00, 0x00, 0x00, 0x00, 0x00, 0x00, 0x00, 0x00, 0x00, 
 0x08, 0x00, 0x00, 0x00, 0x7d, 0xc6, 0x70, 0x37, 0x8d, 0x0b, 0x3e, 0x37, 
 0xd8, 0x67, 0x6b, 0x37, 0xb2, 0x1b, 0x31, 0x38, 0x3b, 0x05, 0x0f, 0x38, 
 0x36, 0x99, 0x30, 0x38, 0x73, 0x66, 0x0e, 0x38, 0xb4, 0x20, 0x46, 0x38, 
 0xa2, 0x00, 0x00, 0x00, 0x73, 0x65, 0x71, 0x75, 0x65, 0x6e, 0x74, 0x69, 
 0x61, 0x6c, 0x5f, 0x31, 0x2f, 0x63, 0x6f, 0x6e, 0x76, 0x31, 0x64, 0x5f, 
 0x31, 0x2f, 0x52, 0x65, 0x6c, 0x75, 0x3b, 0x73, 0x65, 0x71, 0x75, 0x65, 
 0x6e, 0x74, 0x69, 0x61, 0x6c, 0x5f, 0x31, 0x2f, 0x63, 0x6f, 0x6e, 0x76, 
 0x31, 0x64, 0x5f, 0x31, 0x2f, 0x42, 0x69, 0x61, 0x73, 0x41, 0x64, 0x64, 
 0x3b, 0x73, 0x65, 0x71, 0x75, 0x65, 0x6e, 0x74, 0x69, 0x61, 0x6c, 0x5f, 
 0x31, 0x2f, 0x63, 0x6f, 0x6e, 0x76, 0x31, 0x64, 0x5f, 0x31, 0x2f, 0x63, 
 0x6f, 0x6e, 0x76, 0x6f, 0x6c, 0x75, 0x74, 0x69, 0x6f, 0x6e, 0x2f, 0x53, 
 0x71, 0x75, 0x65, 0x65, 0x7a, 0x65, 0x3b, 0x73, 0x65, 0x71, 0x75, 0x65, 
 0x6e, 0x74, 0x69, 0x61, 0x6c, 0x5f, 0x31, 0x2f, 0x63, 0x6f, 0x6e, 0x76, 
 0x31, 0x64, 0x5f, 0x31, 0x2f, 0x53, 0x71, 0x75, 0x65, 0x65, 0x7a, 0x65, 
 0x3b, 0x73, 0x65, 0x71, 0x75, 0x65, 0x6e, 0x74, 0x69, 0x61, 0x6c, 0x5f, 
 0x31, 0x2f, 0x63, 0x6f, 0x6e, 0x76, 0x31, 0x64, 0x5f, 0x31, 0x2f, 0x63, 
 0x6f, 0x6e, 0x76, 0x6f, 0x6c, 0x75, 0x74, 0x69, 0x6f, 0x6e, 0x00, 0x00, 
 0x01, 0x00, 0x00, 0x00, 0x08, 0x00, 0x00, 0x00, 0x2e, 0xfb, 0xff, 0xff, 
 0x00, 0x00, 0x00, 0x01, 0x14, 0x00, 0x00, 0x00, 0xe8, 0x00, 0x00, 0x00, 
 0x0a, 0x00, 0x00, 0x00, 0x00, 0x00, 0x00, 0x09, 0xfc, 0x00, 0x00, 0x00, 
 0x8c, 0xfa, 0xff, 0xff, 0x08, 0x00, 0x00, 0x00, 0x8c, 0x00, 0x00, 0x00, 
 0x10, 0x00, 0x00, 0x00, 0x00, 0x00, 0x00, 0x00, 0x00, 0x00, 0x00, 0x00, 
 0x00, 0x00, 0x00, 0x00, 0x00, 0x00, 0x00, 0x00, 0x00, 0x00, 0x00, 0x00, 
 0x00, 0x00, 0x00, 0x00, 0x00, 0x00, 0x00, 0x00, 0x00, 0x00, 0x00, 0x00, 
 0x00, 0x00, 0x00, 0x00, 0x00, 0x00, 0x00, 0x00, 0x00, 0x00, 0x00, 0x00, 
 0x00, 0x00, 0x00, 0x00, 0x00, 0x00, 0x00, 0x00, 0x00, 0x00, 0x00, 0x00, 
 0x00, 0x00, 0x00, 0x00, 0x00, 0x00, 0x00, 0x00, 0x00, 0x00, 0x00, 0x00, 
 0x00, 0x00, 0x00, 0x00, 0x00, 0x00, 0x00, 0x00, 0x00, 0x00, 0x00, 0x00, 
 0x00, 0x00, 0x00, 0x00, 0x00, 0x00, 0x00, 0x00, 0x00, 0x00, 0x00, 0x00, 
 0x00, 0x00, 0x00, 0x00, 0x00, 0x00, 0x00, 0x00, 0x00, 0x00, 0x00, 0x00, 
 0x00, 0x00, 0x00, 0x00, 0x00, 0x00, 0x00, 0x00, 0x00, 0x00, 0x00, 0x00, 
 0x00, 0x00, 0x00, 0x00, 0x00, 0x00, 0x00, 0x00, 0x00, 0x00, 0x00, 0x00, 
 0x00, 0x00, 0x00, 0x00, 0x10, 0x00, 0x00, 0x00, 0x75, 0x4d, 0x21, 0x3c, 
 0x0a, 0x54, 0x30, 0x3c, 0xd1, 0x60, 0xfb, 0x3b, 0x3f, 0x4d, 0x30, 0x3c, 
 0xf9, 0xb8, 0x2f, 0x3b, 0x0b, 0x19, 0x22, 0x3c, 0xe8, 0x3a, 0x10, 0x3c, 
 0xf0, 0x17, 0x46, 0x3c, 0x9d, 0x0e, 0x1f, 0x3c, 0x6a, 0x1b, 0x51, 0x3c, 
 0x1c, 0x5c, 0x48, 0x3c, 0x73, 0xb3, 0x32, 0x3b, 0xe9, 0x07, 0x06, 0x3c, 
 0x15, 0x58, 0x16, 0x3c, 0x7e, 0xc4, 0x33, 0x3b, 0x0f, 0x4d, 0x2f, 0x3b, 
 0x1b, 0x00, 0x00, 0x00, 0x73, 0x65, 0x71, 0x75, 0x65, 0x6e, 0x74, 0x69, 
 0x61, 0x6c, 0x5f, 0x31, 0x2f, 0x64, 0x65, 0x6e, 0x73, 0x65, 0x5f, 0x31, 
 0x2f, 0x4d, 0x61, 0x74, 0x4d, 0x75, 0x6c, 0x00, 0x02, 0x00, 0x00, 0x00, 
 0x10, 0x00, 0x00, 0x00, 0x20, 0x00, 0x00, 0x00, 0x4e, 0xfc, 0xff, 0xff, 
 0x00, 0x00, 0x00, 0x01, 0x14, 0x00, 0x00, 0x00, 0xe8, 0x00, 0x00, 0x00, 
 0x09, 0x00, 0x00, 0x00, 0x00, 0x00, 0x00, 0x02, 0x18, 0x01, 0x00, 0x00, 
 0xac, 0xfb, 0xff, 0xff, 0x08, 0x00, 0x00, 0x00, 0x8c, 0x00, 0x00, 0x00, 
 0x10, 0x00, 0x00, 0x00, 0x00, 0x00, 0x00, 0x00, 0x00, 0x00, 0x00, 0x00, 
 0x00, 0x00, 0x00, 0x00, 0x00, 0x00, 0x00, 0x00, 0x00, 0x00, 0x00, 0x00, 
 0x00, 0x00, 0x00, 0x00, 0x00, 0x00, 0x00, 0x00, 0x00, 0x00, 0x00, 0x00, 
 0x00, 0x00, 0x00, 0x00, 0x00, 0x00, 0x00, 0x00, 0x00, 0x00, 0x00, 0x00, 
 0x00, 0x00, 0x00, 0x00, 0x00, 0x00, 0x00, 0x00, 0x00, 0x00, 0x00, 0x00, 
 0x00, 0x00, 0x00, 0x00, 0x00, 0x00, 0x00, 0x00, 0x00, 0x00, 0x00, 0x00, 
 0x00, 0x00, 0x00, 0x00, 0x00, 0x00, 0x00, 0x00, 0x00, 0x00, 0x00, 0x00, 
 0x00, 0x00, 0x00, 0x00, 0x00, 0x00, 0x00, 0x00, 0x00, 0x00, 0x00, 0x00, 
 0x00, 0x00, 0x00, 0x00, 0x00, 0x00, 0x00, 0x00, 0x00, 0x00, 0x00, 0x00, 
 0x00, 0x00, 0x00, 0x00, 0x00, 0x00, 0x00, 0x00, 0x00, 0x00, 0x00, 0x00, 
 0x00, 0x00, 0x00, 0x00, 0x00, 0x00, 0x00, 0x00, 0x00, 0x00, 0x00, 0x00, 
 0x00, 0x00, 0x00, 0x00, 0x10, 0x00, 0x00, 0x00, 0x0f, 0x0a, 0xd2, 0x38, 
 0xde, 0x9a, 0xe5, 0x38, 0x57, 0xaa, 0xa3, 0x38, 0x05, 0x92, 0xe5, 0x38, 
 0xf2, 0xd0, 0xe4, 0x37, 0x28, 0x13, 0xd3, 0x38, 0xf8, 0xce, 0xbb, 0x38, 
 0x24, 0xf9, 0x00, 0x39, 0x87, 0x1d, 0xcf, 0x38, 0xd3, 0x24, 0x08, 0x39, 
 0xe0, 0x72, 0x02, 0x39, 0xcd, 0xb1, 0xe8, 0x37, 0x13, 0x87, 0xae, 0x38, 
 0x0e, 0xc5, 0xc3, 0x38, 0x58, 0x15, 0xea, 0x37, 0x6d, 0x44, 0xe4, 0x37, 
 0x36, 0x00, 0x00, 0x00, 0x73, 0x65, 0x71, 0x75, 0x65, 0x6e, 0x74, 0x69, 
 0x61, 0x6c, 0x5f, 0x31, 0x2f, 0x64, 0x65, 0x6e, 0x73, 0x65, 0x5f, 0x31, 
 0x2f, 0x52, 0x65, 0x6c, 0x75, 0x3b, 0x73, 0x65, 0x71, 0x75, 0x65, 0x6e, 
 0x74, 0x69, 0x61, 0x6c, 0x5f, 0x31, 0x2f, 0x64, 0x65, 0x6e, 0x73, 0x65, 
 0x5f, 0x31, 0x2f, 0x42, 0x69, 0x61, 0x73, 0x41, 0x64, 0x64, 0x00, 0x00, 
 0x01, 0x00, 0x00, 0x00, 0x10, 0x00, 0x00, 0x00, 0x86, 0xfd, 0xff, 0xff, 
 0x00, 0x00, 0x00, 0x01, 0x14, 0x00, 0x00, 0x00, 0x64, 0x00, 0x00, 0x00, 
 0x08, 0x00, 0x00, 0x00, 0x00, 0x00, 0x00, 0x09, 0x7c, 0x00, 0x00, 0x00, 
 0xe4, 0xfc, 0xff, 0xff, 0x08, 0x00, 0x00, 0x00, 0x34, 0x00, 0x00, 0x00, 
 0x05, 0x00, 0x00, 0x00, 0x00, 0x00, 0x00, 0x00, 0x00, 0x00, 0x00, 0x00, 
 0x00, 0x00, 0x00, 0x00, 0x00, 0x00, 0x00, 0x00, 0x00, 0x00, 0x00, 0x00, 
 0x00, 0x00, 0x00, 0x00, 0x00, 0x00, 0x00, 0x00, 0x00, 0x00, 0x00, 0x00, 
 0x00, 0x00, 0x00, 0x00, 0x00, 0x00, 0x00, 0x00, 0x00, 0x00, 0x00, 0x00, 
 0x05, 0x00, 0x00, 0x00, 0x3b, 0x92, 0x2c, 0x3c, 0xc3, 0xe1, 0x36, 0x3c, 
 0x6a, 0x4f, 0x2c, 0x3c, 0xa1, 0xc7, 0x2a, 0x3c, 0xb9, 0xc8, 0x34, 0x3c, 
 0x1d, 0x00, 0x00, 0x00, 0x73, 0x65, 0x71, 0x75, 0x65, 0x6e, 0x74, 0x69, 
 0x61, 0x6c, 0x5f, 0x31, 0x2f, 0x64, 0x65, 0x6e, 0x73, 0x65, 0x5f, 0x31, 
 0x5f, 0x32, 0x2f, 0x4d, 0x61, 0x74, 0x4d, 0x75, 0x6c, 0x00, 0x00, 0x00, 
 0x02, 0x00, 0x00, 0x00, 0x05, 0x00, 0x00, 0x00, 0x10, 0x00, 0x00, 0x00, 
 0x26, 0xfe, 0xff, 0xff, 0x00, 0x00, 0x00, 0x01, 0x14, 0x00, 0x00, 0x00, 
 0x64, 0x00, 0x00, 0x00, 0x07, 0x00, 0x00, 0x00, 0x00, 0x00, 0x00, 0x02, 
 0x7c, 0x00, 0x00, 0x00, 0x84, 0xfd, 0xff, 0xff, 0x08, 0x00, 0x00, 0x00, 
 0x34, 0x00, 0x00, 0x00, 0x05, 0x00, 0x00, 0x00, 0x00, 0x00, 0x00, 0x00, 
 0x00, 0x00, 0x00, 0x00, 0x00, 0x00, 0x00, 0x00, 0x00, 0x00, 0x00, 0x00, 
 0x00, 0x00, 0x00, 0x00, 0x00, 0x00, 0x00, 0x00, 0x00, 0x00, 0x00, 0x00, 
 0x00, 0x00, 0x00, 0x00, 0x00, 0x00, 0x00, 0x00, 0x00, 0x00, 0x00, 0x00, 
 0x00, 0x00, 0x00, 0x00, 0x05, 0x00, 0x00, 0x00, 0xb7, 0x7a, 0x62, 0x3a, 
 0xc9, 0x02, 0x70, 0x3a, 0x06, 0x23, 0x62, 0x3a, 0xda, 0x20, 0x60, 0x3a, 
 0xfd, 0x41, 0x6d, 0x3a, 0x1e, 0x00, 0x00, 0x00, 0x73, 0x65, 0x71, 0x75, 
 0x65, 0x6e, 0x74, 0x69, 0x61, 0x6c, 0x5f, 0x31, 0x2f, 0x64, 0x65, 0x6e, 
 0x73, 0x65, 0x5f, 0x31, 0x5f, 0x32, 0x2f, 0x42, 0x69, 0x61, 0x73, 0x41, 
 0x64, 0x64, 0x00, 0x00, 0x01, 0x00, 0x00, 0x00, 0x05, 0x00, 0x00, 0x00, 
 0xc2, 0xfe, 0xff, 0xff, 0x00, 0x00, 0x00, 0x01, 0x14, 0x00, 0x00, 0x00, 
 0x14, 0x00, 0x00, 0x00, 0x06, 0x00, 0x00, 0x00, 0x00, 0x00, 0x00, 0x02, 
 0x34, 0x00, 0x00, 0x00, 0xac, 0xfe, 0xff, 0xff, 0x26, 0x00, 0x00, 0x00, 
 0x73, 0x65, 0x71, 0x75, 0x65, 0x6e, 0x74, 0x69, 0x61, 0x6c, 0x5f, 0x31, 
 0x2f, 0x66, 0x6c, 0x61, 0x74, 0x74, 0x65, 0x6e, 0x5f, 0x31, 0x2f, 0x52, 
 0x65, 0x73, 0x68, 0x61, 0x70, 0x65, 0x2f, 0x73, 0x68, 0x61, 0x70, 0x65, 
 0x2f, 0x31, 0x00, 0x00, 0x00, 0x00, 0x00, 0x00, 0x12, 0xff, 0xff, 0xff, 
 0x00, 0x00, 0x00, 0x01, 0x14, 0x00, 0x00, 0x00, 0x14, 0x00, 0x00, 0x00, 
 0x05, 0x00, 0x00, 0x00, 0x00, 0x00, 0x00, 0x02, 0x1c, 0x00, 0x00, 0x00, 
 0xfc, 0xfe, 0xff, 0xff, 0x0e, 0x00, 0x00, 0x00, 0x61, 0x72, 0x69, 0x74, 
 0x68, 0x2e, 0x63, 0x6f, 0x6e, 0x73, 0x74, 0x61, 0x6e, 0x74, 0x00, 0x00, 
 0x01, 0x00, 0x00, 0x00, 0x01, 0x00, 0x00, 0x00, 0x4e, 0xff, 0xff, 0xff, 
 0x00, 0x00, 0x00, 0x01, 0x14, 0x00, 0x00, 0x00, 0x14, 0x00, 0x00, 0x00, 
 0x04, 0x00, 0x00, 0x00, 0x00, 0x00, 0x00, 0x02, 0x38, 0x00, 0x00, 0x00, 
 0x38, 0xff, 0xff, 0xff, 0x2a, 0x00, 0x00, 0x00, 0x73, 0x65, 0x71, 0x75, 
 0x65, 0x6e, 0x74, 0x69, 0x61, 0x6c, 0x5f, 0x31, 0x2f, 0x66, 0x6c, 0x61, 
 0x74, 0x74, 0x65, 0x6e, 0x5f, 0x31, 0x2f, 0x73, 0x74, 0x72, 0x69, 0x64, 
 0x65, 0x64, 0x5f, 0x73, 0x6c, 0x69, 0x63, 0x65, 0x2f, 0x73, 0x74, 0x61, 
 0x63, 0x6b, 0x00, 0x00, 0x01, 0x00, 0x00, 0x00, 0x01, 0x00, 0x00, 0x00, 
 0xa6, 0xff, 0xff, 0xff, 0x00, 0x00, 0x00, 0x01, 0x14, 0x00, 0x00, 0x00, 
 0x14, 0x00, 0x00, 0x00, 0x03, 0x00, 0x00, 0x00, 0x00, 0x00, 0x00, 0x02, 
 0x38, 0x00, 0x00, 0x00, 0x90, 0xff, 0xff, 0xff, 0x29, 0x00, 0x00, 0x00, 
 0x73, 0x65, 0x71, 0x75, 0x65, 0x6e, 0x74, 0x69, 0x61, 0x6c, 0x5f, 0x31, 
 0x2f, 0x63, 0x6f, 0x6e, 0x76, 0x31, 0x64, 0x5f, 0x31, 0x2f, 0x63, 0x6f, 
 0x6e, 0x76, 0x6f, 0x6c, 0x75, 0x74, 0x69, 0x6f, 0x6e, 0x2f, 0x53, 0x71, 
 0x75, 0x65, 0x65, 0x7a, 0x65, 0x00, 0x00, 0x00, 0x01, 0x00, 0x00, 0x00, 
 0x03, 0x00, 0x00, 0x00, 0x00, 0x00, 0x16, 0x00, 0x1c, 0x00, 0x18, 0x00, 
 0x17, 0x00, 0x10, 0x00, 0x0c, 0x00, 0x08, 0x00, 0x00, 0x00, 0x00, 0x00, 
 0x00, 0x00, 0x07, 0x00, 0x16, 0x00, 0x00, 0x00, 0x00, 0x00, 0x00, 0x01, 
 0x18, 0x00, 0x00, 0x00, 0x18, 0x00, 0x00, 0x00, 0x02, 0x00, 0x00, 0x00, 
 0x00, 0x00, 0x00, 0x02, 0x44, 0x00, 0x00, 0x00, 0x04, 0x00, 0x04, 0x00, 
 0x04, 0x00, 0x00, 0x00, 0x30, 0x00, 0x00, 0x00, 0x73, 0x65, 0x71, 0x75, 
 0x65, 0x6e, 0x74, 0x69, 0x61, 0x6c, 0x5f, 0x31, 0x2f, 0x63, 0x6f, 0x6e, 
 0x76, 0x31, 0x64, 0x5f, 0x31, 0x2f, 0x63, 0x6f, 0x6e, 0x76, 0x6f, 0x6c, 
 0x75, 0x74, 0x69, 0x6f, 0x6e, 0x2f, 0x45, 0x78, 0x70, 0x61, 0x6e, 0x64, 
 0x44, 0x69, 0x6d, 0x73, 0x2f, 0x64, 0x69, 0x6d, 0x00, 0x00, 0x00, 0x00, 
 0x00, 0x00, 0x00, 0x00, 0x00, 0x00, 0x16, 0x00, 0x20, 0x00, 0x1c, 0x00, 
 0x1b, 0x00, 0x14, 0x00, 0x10, 0x00, 0x0c, 0x00, 0x00, 0x00, 0x00, 0x00, 
 0x08, 0x00, 0x07, 0x00, 0x16, 0x00, 0x00, 0x00, 0x00, 0x00, 0x00, 0x01, 
 0x18, 0x00, 0x00, 0x00, 0x30, 0x00, 0x00, 0x00, 0x50, 0x00, 0x00, 0x00, 
 0x01, 0x00, 0x00, 0x00, 0x00, 0x00, 0x00, 0x09, 0x68, 0x00, 0x00, 0x00, 
 0x03, 0x00, 0x00, 0x00, 0xff, 0xff, 0xff, 0xff, 0x05, 0x00, 0x00, 0x00, 
 0x01, 0x00, 0x00, 0x00, 0x0c, 0x00, 0x0c, 0x00, 0x00, 0x00, 0x00, 0x00, 
 0x08, 0x00, 0x04, 0x00, 0x0c, 0x00, 0x00, 0x00, 0x08, 0x00, 0x00, 0x00, 
 0x14, 0x00, 0x00, 0x00, 0x01, 0x00, 0x00, 0x00, 0x80, 0xff, 0xff, 0xff, 
 0xff, 0xff, 0xff, 0xff, 0x00, 0x00, 0x00, 0x00, 0x01, 0x00, 0x00, 0x00, 
 0x7b, 0x54, 0x80, 0x3b, 0x1d, 0x00, 0x00, 0x00, 0x73, 0x65, 0x72, 0x76, 
 0x69, 0x6e, 0x67, 0x5f, 0x64, 0x65, 0x66, 0x61, 0x75, 0x6c, 0x74, 0x5f, 
 0x69, 0x6e, 0x70, 0x75, 0x74, 0x5f, 0x6c, 0x61, 0x79, 0x65, 0x72, 0x3a, 
 0x30, 0x00, 0x00, 0x00, 0x03, 0x00, 0x00, 0x00, 0x01, 0x00, 0x00, 0x00, 
 0x05, 0x00, 0x00, 0x00, 0x01, 0x00, 0x00, 0x00, 0x08, 0x00, 0x00, 0x00, 
 0x98, 0x00, 0x00, 0x00, 0x78, 0x00, 0x00, 0x00, 0x5c, 0x00, 0x00, 0x00, 
 0x4c, 0x00, 0x00, 0x00, 0x3c, 0x00, 0x00, 0x00, 0x2c, 0x00, 0x00, 0x00, 
 0x18, 0x00, 0x00, 0x00, 0x04, 0x00, 0x00, 0x00, 0xb0, 0xff, 0xff, 0xff, 
 0x19, 0x00, 0x00, 0x00, 0x02, 0x00, 0x00, 0x00, 0x00, 0x00, 0x00, 0x19, 
 0xc0, 0xff, 0xff, 0xff, 0x09, 0x00, 0x00, 0x00, 0x04, 0x00, 0x00, 0x00, 
 0x00, 0x00, 0x00, 0x09, 0xb4, 0xff, 0xff, 0xff, 0x53, 0x00, 0x00, 0x00, 
 0x00, 0x00, 0x00, 0x53, 0xc0, 0xff, 0xff, 0xff, 0x2d, 0x00, 0x00, 0x00, 
 0x00, 0x00, 0x00, 0x2d, 0xcc, 0xff, 0xff, 0xff, 0x4d, 0x00, 0x00, 0x00, 
 0x00, 0x00, 0x00, 0x4d, 0xd8, 0xff, 0xff, 0xff, 0x16, 0x00, 0x00, 0x00, 
 0x00, 0x00, 0x00, 0x16, 0x0c, 0x00, 0x10, 0x00, 0x0f, 0x00, 0x00, 0x00, 
 0x08, 0x00, 0x04, 0x00, 0x0c, 0x00, 0x00, 0x00, 0x03, 0x00, 0x00, 0x00, 
 0x03, 0x00, 0x00, 0x00, 0x00, 0x00, 0x00, 0x03, 0x0c, 0x00, 0x0c, 0x00, 
 0x0b, 0x00, 0x00, 0x00, 0x00, 0x00, 0x04, 0x00, 0x0c, 0x00, 0x00, 0x00, 
 0x46, 0x00, 0x00, 0x00, 0x00, 0x00, 0x00, 0x46, 
};

const unsigned int model_data_len = 5984;

#endif
